60 5A B5 24 BB 4B 6A C3 4D DB B3 5B 6E E4 7A 08 6E 22 B4 9C 2D B2 42 B0 D4 4A 9D E5 A4 70 70 A4 6C 58 F3 65 DE B0 42 F8 C8 49 B5 49 C7 6F D2 01 6E 09 F2 42 77 52 B0 52 B1 5F DC D5 DF BB D1 1C 36 7C DE 1B A4 92 F4 71 BC 4A F6 D4 C1 31 2C 4D 9F F0 1B 1B 4F C5 D8 C2 50 B4 15 F0 F5 67 C6 4F 92 9F 9B DC 31 2D 5D B6 29 9B 2B B3 D3 A3 06 1F 44 55 61 F9 01 28 BD F3 E9 54 30 C9 E3 A8 44 FD CA 22 D7 B6 0A BB 13 57 F0 B6 C3 1B 3C BF E0 0F D1 B6 18 06 DC 0E D4 C7 FB E2 4A FD E7 B9 12 16 49 B3 1E F6 01 E9 41 0D 4B 87 D6 AB FC
46 4F 19 56 2E 41 D6 21 9D 5E E4 83 82 91 17 ED 16 5A DF EF 1F D7 B7 4D B0 95 D3 56 C0 06 1B CE B4 DF 95 3C 2E D6 EE 30 3D 08 9F C0 B6 B7 94 67 EE B2 2A B5 B5 9F 0C 4D F5 EC BD 8C FD DD A4 3C 13 5E 13 B5 B9 D4 43 35 DF F5 9A C0 2E 26 E2 45 E4 47 D6 16 1C 0C 0D C9 E4 01 6E 5E B6 B3 99 35 4B 16 A0 E0 2C C4 63 60 35 E7 29 B0 6F 92 53 1F DB 34 03 91 F0 C7 30 98 3F DB DD 21 65 1B B4 A1 44 20 C7 C7 D8 C9 CA 07 FC B5 62 B0 C6 34 D6 36 B0 EE D7 E7 FA 56 45 07 F0 CB D3 1A 00 4A C4 4C BF FB 65 4A DF 43 25 B3 B5 BD 18 C4 F1 2E 3F D1 4D C8 39 C9 E2 5F D6 E3 2B 87 1B F5 DB
E4 B6 1B C9 35 D6 F2 45 15 0E 0F B4 3F 49 13 7B 3E 2A 45 2B 95 18 E9 D1 BA B8 70 54 27 5E 88 16 32 D9 33 DE 50 F3 E4 3F 8E A2 14 7F A2 10 C8 B5 39 87 AC F3 E3 45 EE EF 8E 47 C9 07 62 B8 4E E7 C3 5D E7 E5 F1 FF 47 C9 45 B8 45 6C 7D DE 0B BE 2C D3 95 7C B8 A2 43 67 16 5B 28 92 53 32 E5 12 F5 E0 FF 44 7F 8E 9C 12 3C C3 13 E6 FC 5C 99 76 0B C9 4A DF F8 A4 A4 A4 8A DE 2B B5 DF C2 DE DC E2 D4 04 C8 EF CA 43 63 3C DF D3 CB 0D E0 1E FB CA 51 22 DE B5 36 F7 0F 62 B8 41 4D FD F9 0E B0 5C 50 91 6F 0E CD 53 5E DE 4E F4 39 4E E0 58 06 43 2B A3 E1 FE C2 0F 59 B7 4C 5E 2D ED DB
